{
  "version": "1.0",
  "truncation": null,
  "padding": null,
  "added_tokens": [],
  "normalizer": null,
  "pre_tokenizer": {
    "type": "Metaspace",
    "replacement": " ",
    "prepend_scheme": "always",
    "split": true
  },
  "post_processor": null,
  "decoder": null,
  "model": {
    "type": "BPE",
    "dropout": null,
    "unk_token": null,
    "continuing_subword_prefix": null,
    "end_of_word_suffix": null,
    "fuse_unk": false,
    "byte_fallback": true,
    "ignore_merges": false,
    "vocab": {
      "\n": 0,
      "\r": 1,
      " ": 2,
      "!": 3,
      "\"": 4,
      "(": 5,
      ")": 6,
      ",": 7,
      "-": 8,
      ".": 9,
      "0": 10,
      "1": 11,
      "2": 12,
      "3": 13,
      "4": 14,
      "5": 15,
      "6": 16,
      "7": 17,
      "8": 18,
      "9": 19,
      ":": 20,
      ";": 21,
      "=": 22,
      "?": 23,
      "A": 24,
      "B": 25,
      "C": 26,
      "D": 27,
      "E": 28,
      "F": 29,
      "G": 30,
      "H": 31,
      "I": 32,
      "J": 33,
      "K": 34,
      "L": 35,
      "M": 36,
      "N": 37,
      "O": 38,
      "P": 39,
      "Q": 40,
      "R": 41,
      "S": 42,
      "T": 43,
      "U": 44,
      "V": 45,
      "X": 46,
      "Y": 47,
      "Z": 48,
      "a": 49,
      "b": 50,
      "c": 51,
      "d": 52,
      "e": 53,
      "f": 54,
      "g": 55,
      "h": 56,
      "i": 57,
      "j": 58,
      "k": 59,
      "l": 60,
      "m": 61,
      "n": 62,
      "o": 63,
      "p": 64,
      "q": 65,
      "r": 66,
      "s": 67,
      "t": 68,
      "u": 69,
      "v": 70,
      "x": 71,
      "y": 72,
      "z": 73,
      "¡": 74,
      "«": 75,
      "»": 76,
      "¿": 77,
      "Á": 78,
      "É": 79,
      "Í": 80,
      "Ó": 81,
      "Ú": 82,
      "á": 83,
      "é": 84,
      "í": 85,
      "ñ": 86,
      "ó": 87,
      "ú": 88,
      "ü": 89,
      "“": 90,
      "”": 91,
      "\r\n": 92,
      " \r\n": 93,
      " d": 94,
      "os": 95,
      " e": 96,
      " l": 97,
      " de": 98,
      " a": 99,
      " s": 100,
      " p": 101,
      "ue": 102,
      " c": 103,
      "ra": 104,
      "re": 105,
      "as": 106,
      " t": 107,
      "er": 108,
      " h": 109,
      " y": 110,
      "on": 111,
      " m": 112,
      "an": 113,
      "en": 114,
      "ar": 115,
      "que": 116,
      "do": 117,
      " en": 118,
      " la": 119,
      " el": 120,
      "or": 121,
      " que": 122,
      "es": 123,
      " su": 124,
      " los": 125,
      "ci": 126,
      "st": 127,
      " n": 128,
      "ab": 129,
      "ad": 130,
      "al": 131,
      " v": 132,
      "om": 133,
      " 1": 134,
      " se": 135,
      "un": 136,
      "in": 137,
      "te": 138,
      " con": 139,
      " Y": 140,
      " re": 141,
      " al": 142,
      "am": 143,
      "ij": 144,
      "is": 145,
      "ve": 146,
      "o,": 147,
      " 2": 148,
      " E": 149,
      " S": 150,
      "ón": 151,
      " D": 152,
      "ta": 153,
      " f": 154,
      " un": 155,
      "el": 156,
      "ara": 157,
      " Ya": 158,
      "ro": 159,
      "hve": 160,
      "hveh": 161,
      " Yahveh": 162,
      " por": 163,
      " o": 164,
      "ri": 165,
      " A": 166,
      " del": 167,
      "bre": 168,
      "ía": 169,
      " to": 170,
      " es": 171,
      "to": 172,
      " tu": 173,
      "id": 174,
      " no": 175,
      " b": 176,
      "ier": 177,
      " J": 178,
      "ien": 179,
      "ado": 180,
      " le": 181,
      "os,": 182,
      "ch": 183,
      "a,": 184,
      " est": 185,
      " para": 186,
      " hij": 187,
      " com": 188,
      " ha": 189,
      " las": 190,
      " sus": 191,
      " «": 192,
      " g": 193,
      "le": 194,
      " pue": 195,
      "ti": 196,
      "di": 197,
      "án": 198,
      "de": 199,
      "res": 200,
      "lo": 201,
      " hab": 202,
      " M": 203,
      "ie": 204,
      " 3": 205,
      " tod": 206,
      "qu": 207,
      "ios": 208,
      "la": 209,
      " mi": 210,
      " des": 211,
      "tra": 212,
      " j": 213,
      "ud": 214,
      " P": 215,
      "ás": 216,
      " cu": 217,
      "ir": 218,
      " lo": 219,
      " L": 220,
      "ac": 221,
      "as,": 222,
      ".»": 223,
      " me": 224,
      " so": 225,
      "ombre": 226,
      " rey": 227,
      "it": 228,
      " te": 229,
      " C": 230,
      " man": 231,
      "ros": 232,
      "ce": 233,
      "rael": 234,
      "im": 235,
      "én": 236,
      " é": 237,
      "il": 238,
      "ig": 239,
      " I": 240,
      "ero": 241,
      " como": 242,
      " T": 243,
      "us": 244,
      "uer": 245,
      " El": 246,
      "aron": 247,
      " in": 248,
      "a.": 249,
      " Dios": 250,
      "ras": 251,
      "ici": 252,
      "ran": 253,
      " an": 254,
      "ol": 255,
      "at": 256,
      " Is": 257,
      "ando": 258,
      "uest": 259,
      " mu": 260,
      " él": 261,
      " he": 262,
      " hombre": 263,
      "los": 264,
      "tes": 265,
      "o.": 266,
      " N": 267,
      "ic": 268,
      "ora": 269,
      "ijo": 270,
      "ción": 271,
      "da": 272,
      " 4": 273,
      " hijo": 274,
      "és": 275,
      "ará": 276,
      " ser": 277,
      " ent": 278,
      " una": 279,
      " Israel": 280,
      "ot": 281,
      "ido": 282,
      "ca": 283,
      " H": 284,
      " has": 285,
      "gu": 286,
      " hijos": 287,
      " Se": 288,
      "av": 289,
      " ci": 290,
      " sobre": 291,
      "cu": 292,
      " B": 293,
      "aj": 294,
      " pueb": 295,
      "ierra": 296,
      "ada": 297,
      " todo": 298,
      " (": 299,
      " todos": 300,
      " tierra": 301,
      " di": 302,
      " mis": 303,
      "mp": 304,
      "ió": 305,
      " sac": 306,
      "erm": 307,
      "ren": 308,
      "ías": 309,
      "cia": 310,
      " qu": 311,
      "ec": 312,
      " dijo": 313,
      "za": 314,
      " cas": 315,
      " sal": 316,
      "tar": 317,
      "tos": 318,
      " cam": 319,
      " había": 320,
      " 5": 321,
      " Yahveh,": 322,
      " ¿": 323,
      " ac": 324,
      "mo": 325,
      "ieron": 326,
      " pro": 327,
      "se": 328,
      " ni": 329,
      " ex": 330,
      "go": 331,
      " En": 332,
      "aba": 333,
      " R": 334,
      "iz": 335,
      " tus": 336,
      "ist": 337,
      "éis": 338,
      "me": 339,
      "es,": 340,
      "cho": 341,
      " or": 342,
      " as": 343,
      "ién": 344,
      "os.": 345,
      " am": 346,
      " pad": 347,
      " fue": 348,
      " pues": 349,
      " ar": 350,
      " pa": 351,
      " 6": 352,
      "ente": 353,
      "end": 354,
      "ru": 355,
      "udad": 356,
      "od": 357,
      "pu": 358,
      " entre": 359,
      "avid": 360,
      " pueblo": 361,
      " lle": 362,
      "osot": 363,
      " David": 364,
      " hasta": 365,
      " G": 366,
      "ían": 367,
      " porque": 368,
      " ju": 369,
      " ciudad": 370,
      " ¡": 371,
      " contra": 372,
      "vo": 373,
      " res": 374,
      "ba": 375,
      "ino": 376,
      "cer": 377,
      " día": 378,
      " 7": 379,
      "tu": 380,
      " ap": 381,
      "tro": 382,
      "gar": 383,
      "io": 384,
      "ob": 385,
      "uen": 386,
      "itas": 387,
      "ces": 388,
      " ca": 389,
      " mal": 390,
      "eron": 391,
      " 8": 392,
      "lam": 393,
      "ma": 394,
      " esp": 395,
      " Mo": 396,
      "á,": 397,
      "oy": 398,
      " les": 399,
      "bra": 400,
      "dad": 401,
      "aban": 402,
      " 10": 403,
      " 9": 404,
      "erman": 405,
      "ón,": 406,
      " yo": 407,
      " añ": 408,
      "amb": 409,
      " ellos": 410,
      " 12": 411,
      " mí": 412,
      "ún": 413,
      " ti": 414,
      " pal": 415,
      " per": 416,
      " No": 417,
      " 11": 418,
      "osotros": 419,
      " vuest": 420,
      "ís": 421,
      "co": 422,
      "ados": 423,
      " nuest": 424,
      " 13": 425,
      "tó": 426,
      " pas": 427,
      " ab": 428,
      "rá": 429,
      " car": 430,
      " hombres": 431,
      "ñor": 432,
      "to,": 433,
      " dijo:": 434,
      " =": 435,
      " muj": 436,
      " ten": 437,
      " herman": 438,
      "ron": 439,
      " 14": 440,
      "isés": 441,
      "mos": 442,
      " Moisés": 443,
      " si": 444,
      "ías,": 445,
      "as.": 446,
      "ia": 447,
      "uel": 448,
      "pon": 449,
      " pre": 450,
      "ró": 451,
      " vi": 452,
      " 15": 453,
      "gi": 454,
      "ante": 455,
      " lu": 456,
      " padre": 457,
      " gran": 458,
      " tú": 459,
      " toda": 460,
      "ga": 461,
      " 16": 462,
      "ten": 463,
      "um": 464,
      "erdo": 465,
      " As": 466,
      "ver": 467,
      " ante": 468,
      " Jud": 469,
      "rib": 470,
      " ve": 471,
      " san": 472,
      " tra": 473,
      " cab": 474,
      " casa": 475,
      " os": 476,
      " sacerdo": 477,
      " palab": 478,
      " 17": 479,
      "izo": 480,
      "dió": 481,
      "ones": 482,
      "era": 483,
      " cora": 484,
      " Sal": 485,
      " lev": 486,
      " Si": 487,
      " coraz": 488,
      " esc": 489,
      " cuando": 490,
      " hay": 491,
      " 18": 492,
      "idad": 493,
      " sab": 494,
      " cor": 495,
      "00": 496,
      "ambién": 497,
      "eros": 498,
      "iemp": 499,
      " pero": 500,
      " is": 501,
      " fuer": 502,
      " tom": 503,
      " más": 504,
      "den": 505,
      " pres": 506,
      "las": 507,
      " im": 508,
      "em": 509,
      "ida": 510,
      " enc": 511,
      " ma": 512,
      " sin": 513,
      "sto": 514,
      "lan": 515,
      " 20": 516,
      "ur": 517,
      " Por": 518,
      "onces": 519,
      " 19": 520,
      "ios,": 521,
      "te,": 522,
      " israel": 523,
      "ué": 524,
      "ef": 525,
      " Los": 526,
      " ven": 527,
      " está": 528,
      "quel": 529,
      "eb": 530,
      "ub": 531,
      " ob": 532,
      " Jer": 533,
      " Pero": 534,
      "arás": 535,
      " Jos": 536,
      " sier": 537,
      "ens": 538,
      " par": 539,
      "tado": 540,
      "anto": 541,
      " son": 542,
      "et": 543,
      " don": 544,
      " pec": 545,
      "gip": 546,
      "gún": 547,
      "endo": 548,
      " oj": 549,
      " mujer": 550,
      "pa": 551,
      "gun": 552,
      " mon": 553,
      " 21": 554,
      " mano": 555,
      " of": 556,
      "ib": 557,
      " 22": 558,
      " ella": 559,
      " todas": 560,
      "cha": 561,
      " Est": 562,
      " qued": 563,
      "alén": 564,
      "usalén": 565,
      "ul": 566,
      " país": 567,
      "aré": 568,
      " vol": 569,
      " Jerusalén": 570,
      " corazón": 571,
      "lí": 572,
      " hizo": 573,
      " ver": 574,
      " bien": 575,
      "va": 576,
      " Cu": 577,
      " dos": 578,
      " desde": 579,
      " agu": 580,
      " rec": 581,
      " uno": 582,
      " mar": 583,
      " Ab": 584,
      "ag": 585,
      " Dios,": 586,
      " (1": 587,
      " tien": 588,
      "les": 589,
      " donde": 590,
      " O": 591,
      " gu": 592,
      "rif": 593,
      " «¿": 594,
      " también": 595,
      " serv": 596,
      " será": 597,
      " Q": 598,
      "?»": 599,
      " 23": 600,
      "oz": 601,
      " pie": 602,
      " israelitas": 603,
      " pod": 604,
      "aú": 605,
      "aci": 606,
      " pe": 607,
      " De": 608,
      " pr": 609,
      "asa": 610,
      " cons": 611,
      " mand": 612,
      " medi": 613,
      " Señor": 614,
      " nombre": 615,
      "án,": 616,
      "dos": 617,
      "ra,": 618,
      " 24": 619,
      " aquel": 620,
      " días": 621,
      " llam": 622,
      " camp": 623,
      " llev": 624,
      "ta,": 625,
      "ín": 626,
      " Egip": 627,
      " muer": 628,
      "to.": 629,
      " Al": 630,
      " allí": 631,
      " env": 632,
      " así": 633,
      "ter": 634,
      "ér": 635,
      " Le": 636,
      "pués": 637,
      "reci": 638,
      " entra": 639,
      "olo": 640,
      " F": 641,
      "tas": 642,
      " ej": 643,
      " Yahveh.": 644,
      " presen": 645,
      " cos": 646,
      "e,": 647,
      "stru": 648,
      " pla": 649,
      "ues": 650,
      " Cuando": 651,
      " 25": 652,
      " V": 653,
      " sub": 654,
      " Ent": 655,
      " dej": 656,
      "ado,": 657,
      " Israel,": 658,
      "lor": 659,
      " conf": 660,
      " baj": 661,
      " hecho": 662,
      "ram": 663,
      " cada": 664,
      "iste": 665,
      "No": 666,
      " jef": 667,
      " La": 668,
      "lo,": 669,
      " era": 670,
      " vosotros": 671,
      " este": 672,
      "du": 673,
      " quien": 674,
      " pri": 675,
      " han": 676,
      "eg": 677,
      " Casa": 678,
      " pon": 679,
      " nos": 680,
      " esta": 681,
      " lugar": 682,
      " jun": 683,
      "pondió": 684,
      " pos": 685,
      " ya": 686,
      " just": 687,
      " 26": 688,
      "rás": 689,
      " pues,": 690,
      " rep": 691,
      "anz": 692,
      " rein": 693,
      " delante": 694,
      "aúl": 695,
      " -": 696,
      " sacrif": 697,
      " Judá": 698,
      " Es": 699,
      " Saúl": 700,
      "az": 701,
      "icio": 702,
      "í,": 703,
      " lleg": 704,
      " qué": 705,
      "rente": 706,
      "ión": 707,
      "los,": 708,
      "pe": 709,
      "do,": 710,
      " 27": 711,
      " ciel": 712,
      "no": 713,
      "es.": 714,
      " trib": 715,
      " hacer": 716,
      " ojos": 717,
      " guar": 718,
      "res,": 719,
      " manos": 720,
      "hora": 721,
      " según": 722,
      " escu": 723,
      " hacia": 724,
      " palabras": 725,
      "ento": 726,
      " dici": 727,
      " orden": 728,
      "odo": 729,
      " habl": 730,
      " mad": 731,
      "el,": 732,
      "or,": 733,
      "arán": 734,
      " tor": 735,
      " tem": 736,
      " ro": 737,
      " altar": 738,
      " 28": 739,
      "chos": 740,
      "ven": 741,
      " enem": 742,
      " habit": 743,
      "ura": 744,
      " habían": 745,
      "uso": 746,
      "rió": 747,
      " ben": 748,
      "anza": 749,
      " levan": 750,
      " enemig": 751,
      " Aar": 752,
      " ad": 753,
      " Entonces": 754,
      " carn": 755,
      "esti": 756,
      " mismo": 757,
      " sacerdote": 758,
      " nosotros": 759,
      " desp": 760,
      " ter": 761,
      " dio": 762,
      "tal": 763,
      " bo": 764,
      " cabe": 765,
      " prof": 766,
      " medio": 767,
      " estaba": 768,
      "rar": 769,
      " diciendo": 770,
      " fil": 771,
      "gre": 772,
      " tiemp": 773,
      "ste": 774,
      "fic": 775,
      "ño": 776,
      " 29": 777,
      " po": 778,
      "ord": 779,
      " oí": 780,
      " comp": 781,
      "ana": 782,
      "che": 783,
      "igu": 784,
      "lic": 785,
      "tad": 786,
      "ay": 787,
      "len": 788,
      "ina": 789,
      " imp": 790,
      "ro,": 791,
      "acob": 792,
      "iempre": 793,
      "tor": 794,
      "taron": 795,
      " «E": 796,
      " Sam": 797,
      "ña": 798,
      " gen": 799,
      " puer": 800,
      " cual": 801,
      " pecado": 802,
      " val": 803,
      " siempre": 804,
      " Jacob": 805,
      " Am": 806,
      " desc": 807,
      " 30": 808,
      " der": 809,
      " comer": 810,
      "érci": 811,
      " ejérci": 812,
      " diciendo:": 813,
      "áis": 814,
      " can": 815,
      "iendo": 816,
      " nuestro": 817,
      " sea": 818,
      " otro": 819,
      " Z": 820,
      "ío": 821,
      " ra": 822,
      " guer": 823,
      " cuanto": 824,
      " viv": 825,
      "das": 826,
      "don": 827,
      " Dijo": 828,
      " Israel.": 829,
      " camino": 830,
      "amos": 831,
      "rado": 832,
      "cir": 833,
      " años": 834,
      "idos": 835,
      " sie": 836,
      " ciudades": 837,
      " sierv": 838,
      " junto": 839,
      " señor": 840,
      " Jo": 841,
      " vuestro": 842,
      " Aj": 843,
      " gra": 844,
      " sen": 845,
      "ar,": 846,
      "la,": 847,
      " pu": 848,
      "itas,": 849,
      " Salom": 850,
      "baj": 851,
      "na": 852,
      " palabra": 853,
      " camin": 854,
      "eci": 855,
      " hoy": 856,
      "ros,": 857,
      " glor": 858,
      "amente": 859,
      " U": 860,
      " mat": 861,
      "est": 862,
      "ía,": 863,
      "iente": 864,
      " «¡": 865,
      " prop": 866,
      " ext": 867,
      " sangre": 868,
      " ir": 869,
      "ed": 870,
      " dis": 871,
      "recer": 872,
      "antes": 873,
      " tribu": 874,
      " for": 875,
      " Así": 876,
      "ita": 877,
      "able": 878,
      " vida": 879,
      " 31": 880,
      "000": 881,
      "oloca": 882,
      " Su": 883,
      "dido": 884,
      "tras": 885,
      " fueron": 886,
      " holoca": 887,
      " holocau": 888,
      "ala": 889,
      " oro": 890,
      " filiste": 891,
      " tierra,": 892,
      " Que": 893,
      ".000": 894,
      "ción,": 895,
      " entonces": 896,
      " cal": 897,
      " vuestros": 898,
      " “": 899,
      " dij": 900,
      " li": 901,
      " aqu": 902,
      " Yo": 903,
      " Des": 904,
      " Con": 905,
      "có": 906,
      "!»": 907,
      " dec": 908,
      "ira": 909,
      "yó": 910,
      " naci": 911,
      " vien": 912,
      " Porque": 913,
      " bus": 914,
      " después": 915,
      " Re": 916,
      "mb": 917,
      " mor": 918,
      " Pues": 919,
      " buen": 920,
      " r": 921,
      "jo": 922,
      "uego": 923,
      " cin": 924,
      " volv": 925,
      " Aarón": 926,
      " pi": 927,
      " pan": 928,
      " cer": 929,
      " «A": 930,
      " ace": 931,
      " die": 932,
      "remos": 933,
      " comun": 934,
      " tres": 935,
      "ciones": 936,
      " frente": 937,
      " 32": 938,
      " él,": 939,
      " puso": 940,
      " sacerdotes": 941,
      " Josué": 942,
      " amor": 943,
      "er,": 944,
      " siete": 945,
      " eng": 946,
      " men": 947,
      " jefes": 948,
      "af": 949,
      "tos,": 950,
      " hace": 951,
      " Fara": 952,
      "irá": 953,
      " Dios.": 954,
      "Por": 955,
      "io,": 956,
      " mes": 957,
      " ali": 958,
      " eso": 959,
      " nuestros": 960,
      " tiempo": 961,
      " hici": 962,
      " desier": 963,
      " cuer": 964,
      "ales": 965,
      " justici": 966,
      "aréis": 967,
      " gan": 968,
      " siervo": 969,
      "der": 970,
      "go,": 971,
      "o;": 972,
      " hu": 973,
      "Qué": 974,
      " llen": 975,
      " Ben": 976,
      "pul": 977,
      " Salomón": 978,
      "rán": 979,
      " ri": 980,
      " ahora": 981,
      "all": 982,
      "gó": 983,
      "idur": 984,
      "más": 985,
      " sido": 986,
      " col": 987,
      " nada": 988,
      " vid": 989,
      " respondió": 990,
      "mas": 991,
      " cono": 992,
      " Abra": 993,
      " estaban": 994,
      " apar": 995,
      " hermanos": 996,
      "cuen": 997,
      "mon": 998,
      " dios": 999,
      "ientes": 1000,
      " pied": 1001,
      "des": 1002,
      "tan": 1003,
      " «S": 1004,
      " «H": 1005,
      " padres": 1006,
      "car": 1007,
      " sue": 1008,
      " esto": 1009,
      " voz": 1010,
      " 33": 1011,
      " año": 1012,
      "cen": 1013,
      "ia,": 1014,
      " Res": 1015,
      "odos": 1016,
      " lib": 1017,
      "ado.": 1018,
      " Man": 1019,
      " hermano": 1020,
      " parte": 1021,
      " plata": 1022,
      " prim": 1023
    },
    "merges": [
      [
        "\r",
        "\n"
      ],
      [
        " ",
        "\r\n"
      ],
      [
        " ",
        "d"
      ],
      [
        "o",
        "s"
      ],
      [
        " ",
        "e"
      ],
      [
        " ",
        "l"
      ],
      [
        " d",
        "e"
      ],
      [
        " ",
        "a"
      ],
      [
        " ",
        "s"
      ],
      [
        " ",
        "p"
      ],
      [
        "u",
        "e"
      ],
      [
        " ",
        "c"
      ],
      [
        "r",
        "a"
      ],
      [
        "r",
        "e"
      ],
      [
        "a",
        "s"
      ],
      [
        " ",
        "t"
      ],
      [
        "e",
        "r"
      ],
      [
        " ",
        "h"
      ],
      [
        " ",
        "y"
      ],
      [
        "o",
        "n"
      ],
      [
        " ",
        "m"
      ],
      [
        "a",
        "n"
      ],
      [
        "e",
        "n"
      ],
      [
        "a",
        "r"
      ],
      [
        "q",
        "ue"
      ],
      [
        "d",
        "o"
      ],
      [
        " e",
        "n"
      ],
      [
        " l",
        "a"
      ],
      [
        " e",
        "l"
      ],
      [
        "o",
        "r"
      ],
      [
        " ",
        "que"
      ],
      [
        "e",
        "s"
      ],
      [
        " s",
        "u"
      ],
      [
        " l",
        "os"
      ],
      [
        "c",
        "i"
      ],
      [
        "s",
        "t"
      ],
      [
        " ",
        "n"
      ],
      [
        "a",
        "b"
      ],
      [
        "a",
        "d"
      ],
      [
        "a",
        "l"
      ],
      [
        " ",
        "v"
      ],
      [
        "o",
        "m"
      ],
      [
        " ",
        "1"
      ],
      [
        " s",
        "e"
      ],
      [
        "u",
        "n"
      ],
      [
        "i",
        "n"
      ],
      [
        "t",
        "e"
      ],
      [
        " c",
        "on"
      ],
      [
        " ",
        "Y"
      ],
      [
        " ",
        "re"
      ],
      [
        " a",
        "l"
      ],
      [
        "a",
        "m"
      ],
      [
        "i",
        "j"
      ],
      [
        "i",
        "s"
      ],
      [
        "v",
        "e"
      ],
      [
        "o",
        ","
      ],
      [
        " ",
        "2"
      ],
      [
        " ",
        "E"
      ],
      [
        " ",
        "S"
      ],
      [
        "ó",
        "n"
      ],
      [
        " ",
        "D"
      ],
      [
        "t",
        "a"
      ],
      [
        " ",
        "f"
      ],
      [
        " ",
        "un"
      ],
      [
        "e",
        "l"
      ],
      [
        "a",
        "ra"
      ],
      [
        " Y",
        "a"
      ],
      [
        "r",
        "o"
      ],
      [
        "h",
        "ve"
      ],
      [
        "hve",
        "h"
      ],
      [
        " Ya",
        "hveh"
      ],
      [
        " p",
        "or"
      ],
      [
        " ",
        "o"
      ],
      [
        "r",
        "i"
      ],
      [
        " ",
        "A"
      ],
      [
        " de",
        "l"
      ],
      [
        "b",
        "re"
      ],
      [
        "í",
        "a"
      ],
      [
        " t",
        "o"
      ],
      [
        " e",
        "s"
      ],
      [
        "t",
        "o"
      ],
      [
        " t",
        "u"
      ],
      [
        "i",
        "d"
      ],
      [
        " n",
        "o"
      ],
      [
        " ",
        "b"
      ],
      [
        "i",
        "er"
      ],
      [
        " ",
        "J"
      ],
      [
        "i",
        "en"
      ],
      [
        "a",
        "do"
      ],
      [
        " l",
        "e"
      ],
      [
        "os",
        ","
      ],
      [
        "c",
        "h"
      ],
      [
        "a",
        ","
      ],
      [
        " e",
        "st"
      ],
      [
        " p",
        "ara"
      ],
      [
        " h",
        "ij"
      ],
      [
        " c",
        "om"
      ],
      [
        " h",
        "a"
      ],
      [
        " l",
        "as"
      ],
      [
        " su",
        "s"
      ],
      [
        " ",
        "«"
      ],
      [
        " ",
        "g"
      ],
      [
        "l",
        "e"
      ],
      [
        " p",
        "ue"
      ],
      [
        "t",
        "i"
      ],
      [
        "d",
        "i"
      ],
      [
        "á",
        "n"
      ],
      [
        "d",
        "e"
      ],
      [
        "re",
        "s"
      ],
      [
        "l",
        "o"
      ],
      [
        " h",
        "ab"
      ],
      [
        " ",
        "M"
      ],
      [
        "i",
        "e"
      ],
      [
        " ",
        "3"
      ],
      [
        " to",
        "d"
      ],
      [
        "q",
        "u"
      ],
      [
        "i",
        "os"
      ],
      [
        "l",
        "a"
      ],
      [
        " m",
        "i"
      ],
      [
        " de",
        "s"
      ],
      [
        "t",
        "ra"
      ],
      [
        " ",
        "j"
      ],
      [
        "u",
        "d"
      ],
      [
        " ",
        "P"
      ],
      [
        "á",
        "s"
      ],
      [
        " c",
        "u"
      ],
      [
        "i",
        "r"
      ],
      [
        " l",
        "o"
      ],
      [
        " ",
        "L"
      ],
      [
        "a",
        "c"
      ],
      [
        "as",
        ","
      ],
      [
        ".",
        "»"
      ],
      [
        " m",
        "e"
      ],
      [
        " s",
        "o"
      ],
      [
        "om",
        "bre"
      ],
      [
        " re",
        "y"
      ],
      [
        "i",
        "t"
      ],
      [
        " t",
        "e"
      ],
      [
        " ",
        "C"
      ],
      [
        " m",
        "an"
      ],
      [
        "r",
        "os"
      ],
      [
        "c",
        "e"
      ],
      [
        "ra",
        "el"
      ],
      [
        "i",
        "m"
      ],
      [
        "é",
        "n"
      ],
      [
        " ",
        "é"
      ],
      [
        "i",
        "l"
      ],
      [
        "i",
        "g"
      ],
      [
        " ",
        "I"
      ],
      [
        "er",
        "o"
      ],
      [
        " com",
        "o"
      ],
      [
        " ",
        "T"
      ],
      [
        "u",
        "s"
      ],
      [
        "ue",
        "r"
      ],
      [
        " E",
        "l"
      ],
      [
        "ar",
        "on"
      ],
      [
        " ",
        "in"
      ],
      [
        "a",
        "."
      ],
      [
        " D",
        "ios"
      ],
      [
        "ra",
        "s"
      ],
      [
        "i",
        "ci"
      ],
      [
        "ra",
        "n"
      ],
      [
        " a",
        "n"
      ],
      [
        "o",
        "l"
      ],
      [
        "a",
        "t"
      ],
      [
        " I",
        "s"
      ],
      [
        "an",
        "do"
      ],
      [
        "ue",
        "st"
      ],
      [
        " m",
        "u"
      ],
      [
        " é",
        "l"
      ],
      [
        " h",
        "e"
      ],
      [
        " h",
        "ombre"
      ],
      [
        "l",
        "os"
      ],
      [
        "t",
        "es"
      ],
      [
        "o",
        "."
      ],
      [
        " ",
        "N"
      ],
      [
        "i",
        "c"
      ],
      [
        "o",
        "ra"
      ],
      [
        "ij",
        "o"
      ],
      [
        "ci",
        "ón"
      ],
      [
        "d",
        "a"
      ],
      [
        " ",
        "4"
      ],
      [
        " hij",
        "o"
      ],
      [
        "é",
        "s"
      ],
      [
        "ar",
        "á"
      ],
      [
        " s",
        "er"
      ],
      [
        " en",
        "t"
      ],
      [
        " un",
        "a"
      ],
      [
        " Is",
        "rael"
      ],
      [
        "o",
        "t"
      ],
      [
        "i",
        "do"
      ],
      [
        "c",
        "a"
      ],
      [
        " ",
        "H"
      ],
      [
        " h",
        "as"
      ],
      [
        "g",
        "u"
      ],
      [
        " hij",
        "os"
      ],
      [
        " S",
        "e"
      ],
      [
        "a",
        "v"
      ],
      [
        " c",
        "i"
      ],
      [
        " so",
        "bre"
      ],
      [
        "c",
        "u"
      ],
      [
        " ",
        "B"
      ],
      [
        "a",
        "j"
      ],
      [
        " pue",
        "b"
      ],
      [
        "ier",
        "ra"
      ],
      [
        "ad",
        "a"
      ],
      [
        " to",
        "do"
      ],
      [
        " ",
        "("
      ],
      [
        " tod",
        "os"
      ],
      [
        " t",
        "ierra"
      ],
      [
        " d",
        "i"
      ],
      [
        " m",
        "is"
      ],
      [
        "m",
        "p"
      ],
      [
        "i",
        "ó"
      ],
      [
        " s",
        "ac"
      ],
      [
        "er",
        "m"
      ],
      [
        "re",
        "n"
      ],
      [
        "í",
        "as"
      ],
      [
        "ci",
        "a"
      ],
      [
        " ",
        "qu"
      ],
      [
        "e",
        "c"
      ],
      [
        " d",
        "ijo"
      ],
      [
        "z",
        "a"
      ],
      [
        " c",
        "as"
      ],
      [
        " s",
        "al"
      ],
      [
        "t",
        "ar"
      ],
      [
        "t",
        "os"
      ],
      [
        " c",
        "am"
      ],
      [
        " hab",
        "ía"
      ],
      [
        " ",
        "5"
      ],
      [
        " Yahveh",
        ","
      ],
      [
        " ",
        "¿"
      ],
      [
        " a",
        "c"
      ],
      [
        "m",
        "o"
      ],
      [
        "ier",
        "on"
      ],
      [
        " p",
        "ro"
      ],
      [
        "s",
        "e"
      ],
      [
        " n",
        "i"
      ],
      [
        " e",
        "x"
      ],
      [
        "g",
        "o"
      ],
      [
        " E",
        "n"
      ],
      [
        "ab",
        "a"
      ],
      [
        " ",
        "R"
      ],
      [
        "i",
        "z"
      ],
      [
        " tu",
        "s"
      ],
      [
        "i",
        "st"
      ],
      [
        "é",
        "is"
      ],
      [
        "m",
        "e"
      ],
      [
        "es",
        ","
      ],
      [
        "ch",
        "o"
      ],
      [
        " ",
        "or"
      ],
      [
        " a",
        "s"
      ],
      [
        "i",
        "én"
      ],
      [
        "os",
        "."
      ],
      [
        " a",
        "m"
      ],
      [
        " p",
        "ad"
      ],
      [
        " f",
        "ue"
      ],
      [
        " pue",
        "s"
      ],
      [
        " a",
        "r"
      ],
      [
        " p",
        "a"
      ],
      [
        " ",
        "6"
      ],
      [
        "en",
        "te"
      ],
      [
        "en",
        "d"
      ],
      [
        "r",
        "u"
      ],
      [
        "ud",
        "ad"
      ],
      [
        "o",
        "d"
      ],
      [
        "p",
        "u"
      ],
      [
        " ent",
        "re"
      ],
      [
        "av",
        "id"
      ],
      [
        " pueb",
        "lo"
      ],
      [
        " l",
        "le"
      ],
      [
        "os",
        "ot"
      ],
      [
        " D",
        "avid"
      ],
      [
        " has",
        "ta"
      ],
      [
        " ",
        "G"
      ],
      [
        "í",
        "an"
      ],
      [
        " por",
        "que"
      ],
      [
        " j",
        "u"
      ],
      [
        " ci",
        "udad"
      ],
      [
        " ",
        "¡"
      ],
      [
        " con",
        "tra"
      ],
      [
        "v",
        "o"
      ],
      [
        " re",
        "s"
      ],
      [
        "b",
        "a"
      ],
      [
        "in",
        "o"
      ],
      [
        "c",
        "er"
      ],
      [
        " d",
        "ía"
      ],
      [
        " ",
        "7"
      ],
      [
        "t",
        "u"
      ],
      [
        " a",
        "p"
      ],
      [
        "t",
        "ro"
      ],
      [
        "g",
        "ar"
      ],
      [
        "i",
        "o"
      ],
      [
        "o",
        "b"
      ],
      [
        "ue",
        "n"
      ],
      [
        "it",
        "as"
      ],
      [
        "c",
        "es"
      ],
      [
        " c",
        "a"
      ],
      [
        " m",
        "al"
      ],
      [
        "er",
        "on"
      ],
      [
        " ",
        "8"
      ],
      [
        "l",
        "am"
      ],
      [
        "m",
        "a"
      ],
      [
        " es",
        "p"
      ],
      [
        " M",
        "o"
      ],
      [
        "á",
        ","
      ],
      [
        "o",
        "y"
      ],
      [
        " l",
        "es"
      ],
      [
        "b",
        "ra"
      ],
      [
        "d",
        "ad"
      ],
      [
        "ab",
        "an"
      ],
      [
        " 1",
        "0"
      ],
      [
        " ",
        "9"
      ],
      [
        "erm",
        "an"
      ],
      [
        "ón",
        ","
      ],
      [
        " y",
        "o"
      ],
      [
        " a",
        "ñ"
      ],
      [
        "am",
        "b"
      ],
      [
        " el",
        "los"
      ],
      [
        " 1",
        "2"
      ],
      [
        " m",
        "í"
      ],
      [
        "ú",
        "n"
      ],
      [
        " t",
        "i"
      ],
      [
        " p",
        "al"
      ],
      [
        " p",
        "er"
      ],
      [
        " N",
        "o"
      ],
      [
        " 1",
        "1"
      ],
      [
        "osot",
        "ros"
      ],
      [
        " v",
        "uest"
      ],
      [
        "í",
        "s"
      ],
      [
        "c",
        "o"
      ],
      [
        "ad",
        "os"
      ],
      [
        " n",
        "uest"
      ],
      [
        " 1",
        "3"
      ],
      [
        "t",
        "ó"
      ],
      [
        " p",
        "as"
      ],
      [
        " a",
        "b"
      ],
      [
        "r",
        "á"
      ],
      [
        " c",
        "ar"
      ],
      [
        " hombre",
        "s"
      ],
      [
        "ñ",
        "or"
      ],
      [
        "t",
        "o,"
      ],
      [
        " dijo",
        ":"
      ],
      [
        " ",
        "="
      ],
      [
        " mu",
        "j"
      ],
      [
        " t",
        "en"
      ],
      [
        " h",
        "erman"
      ],
      [
        "r",
        "on"
      ],
      [
        " 1",
        "4"
      ],
      [
        "is",
        "és"
      ],
      [
        "m",
        "os"
      ],
      [
        " Mo",
        "isés"
      ],
      [
        " s",
        "i"
      ],
      [
        "í",
        "as,"
      ],
      [
        "as",
        "."
      ],
      [
        "i",
        "a"
      ],
      [
        "ue",
        "l"
      ],
      [
        "p",
        "on"
      ],
      [
        " p",
        "re"
      ],
      [
        "r",
        "ó"
      ],
      [
        " v",
        "i"
      ],
      [
        " 1",
        "5"
      ],
      [
        "g",
        "i"
      ],
      [
        "an",
        "te"
      ],
      [
        " l",
        "u"
      ],
      [
        " pad",
        "re"
      ],
      [
        " g",
        "ran"
      ],
      [
        " t",
        "ú"
      ],
      [
        " tod",
        "a"
      ],
      [
        "g",
        "a"
      ],
      [
        " 1",
        "6"
      ],
      [
        "t",
        "en"
      ],
      [
        "u",
        "m"
      ],
      [
        "er",
        "do"
      ],
      [
        " A",
        "s"
      ],
      [
        "v",
        "er"
      ],
      [
        " an",
        "te"
      ],
      [
        " J",
        "ud"
      ],
      [
        "ri",
        "b"
      ],
      [
        " v",
        "e"
      ],
      [
        " s",
        "an"
      ],
      [
        " t",
        "ra"
      ],
      [
        " c",
        "ab"
      ],
      [
        " cas",
        "a"
      ],
      [
        " ",
        "os"
      ],
      [
        " sac",
        "erdo"
      ],
      [
        " pal",
        "ab"
      ],
      [
        " 1",
        "7"
      ],
      [
        "iz",
        "o"
      ],
      [
        "di",
        "ó"
      ],
      [
        "on",
        "es"
      ],
      [
        "e",
        "ra"
      ],
      [
        " c",
        "ora"
      ],
      [
        " S",
        "al"
      ],
      [
        " le",
        "v"
      ],
      [
        " S",
        "i"
      ],
      [
        " cora",
        "z"
      ],
      [
        " es",
        "c"
      ],
      [
        " cu",
        "ando"
      ],
      [
        " ha",
        "y"
      ],
      [
        " 1",
        "8"
      ],
      [
        "id",
        "ad"
      ],
      [
        " s",
        "ab"
      ],
      [
        " c",
        "or"
      ],
      [
        "0",
        "0"
      ],
      [
        "amb",
        "ién"
      ],
      [
        "er",
        "os"
      ],
      [
        "ie",
        "mp"
      ],
      [
        " p",
        "ero"
      ],
      [
        " ",
        "is"
      ],
      [
        " f",
        "uer"
      ],
      [
        " t",
        "om"
      ],
      [
        " m",
        "ás"
      ],
      [
        "d",
        "en"
      ],
      [
        " p",
        "res"
      ],
      [
        "l",
        "as"
      ],
      [
        " ",
        "im"
      ],
      [
        "e",
        "m"
      ],
      [
        "id",
        "a"
      ],
      [
        " en",
        "c"
      ],
      [
        " m",
        "a"
      ],
      [
        " s",
        "in"
      ],
      [
        "st",
        "o"
      ],
      [
        "l",
        "an"
      ],
      [
        " 2",
        "0"
      ],
      [
        "u",
        "r"
      ],
      [
        " P",
        "or"
      ],
      [
        "on",
        "ces"
      ],
      [
        " 1",
        "9"
      ],
      [
        "i",
        "os,"
      ],
      [
        "te",
        ","
      ],
      [
        " is",
        "rael"
      ],
      [
        "u",
        "é"
      ],
      [
        "e",
        "f"
      ],
      [
        " L",
        "os"
      ],
      [
        " v",
        "en"
      ],
      [
        " est",
        "á"
      ],
      [
        "que",
        "l"
      ],
      [
        "e",
        "b"
      ],
      [
        "u",
        "b"
      ],
      [
        " o",
        "b"
      ],
      [
        " J",
        "er"
      ],
      [
        " P",
        "ero"
      ],
      [
        "ar",
        "ás"
      ],
      [
        " J",
        "os"
      ],
      [
        " s",
        "ier"
      ],
      [
        "en",
        "s"
      ],
      [
        " p",
        "ar"
      ],
      [
        "ta",
        "do"
      ],
      [
        "an",
        "to"
      ],
      [
        " s",
        "on"
      ],
      [
        "e",
        "t"
      ],
      [
        " d",
        "on"
      ],
      [
        " p",
        "ec"
      ],
      [
        "gi",
        "p"
      ],
      [
        "g",
        "ún"
      ],
      [
        "en",
        "do"
      ],
      [
        " o",
        "j"
      ],
      [
        " muj",
        "er"
      ],
      [
        "p",
        "a"
      ],
      [
        "g",
        "un"
      ],
      [
        " m",
        "on"
      ],
      [
        " 2",
        "1"
      ],
      [
        " man",
        "o"
      ],
      [
        " o",
        "f"
      ],
      [
        "i",
        "b"
      ],
      [
        " 2",
        "2"
      ],
      [
        " el",
        "la"
      ],
      [
        " tod",
        "as"
      ],
      [
        "ch",
        "a"
      ],
      [
        " E",
        "st"
      ],
      [
        " que",
        "d"
      ],
      [
        "al",
        "én"
      ],
      [
        "us",
        "alén"
      ],
      [
        "u",
        "l"
      ],
      [
        " pa",
        "ís"
      ],
      [
        "ar",
        "é"
      ],
      [
        " v",
        "ol"
      ],
      [
        " Jer",
        "usalén"
      ],
      [
        " coraz",
        "ón"
      ],
      [
        "l",
        "í"
      ],
      [
        " h",
        "izo"
      ],
      [
        " v",
        "er"
      ],
      [
        " b",
        "ien"
      ],
      [
        "v",
        "a"
      ],
      [
        " C",
        "u"
      ],
      [
        " d",
        "os"
      ],
      [
        " des",
        "de"
      ],
      [
        " a",
        "gu"
      ],
      [
        " re",
        "c"
      ],
      [
        " un",
        "o"
      ],
      [
        " m",
        "ar"
      ],
      [
        " A",
        "b"
      ],
      [
        "a",
        "g"
      ],
      [
        " D",
        "ios,"
      ],
      [
        " (",
        "1"
      ],
      [
        " t",
        "ien"
      ],
      [
        "l",
        "es"
      ],
      [
        " don",
        "de"
      ],
      [
        " ",
        "O"
      ],
      [
        " g",
        "u"
      ],
      [
        "ri",
        "f"
      ],
      [
        " «",
        "¿"
      ],
      [
        " t",
        "ambién"
      ],
      [
        " ser",
        "v"
      ],
      [
        " ser",
        "á"
      ],
      [
        " ",
        "Q"
      ],
      [
        "?",
        "»"
      ],
      [
        " 2",
        "3"
      ],
      [
        "o",
        "z"
      ],
      [
        " p",
        "ie"
      ],
      [
        " israel",
        "itas"
      ],
      [
        " p",
        "od"
      ],
      [
        "a",
        "ú"
      ],
      [
        "a",
        "ci"
      ],
      [
        " p",
        "e"
      ],
      [
        " D",
        "e"
      ],
      [
        " p",
        "r"
      ],
      [
        "as",
        "a"
      ],
      [
        " con",
        "s"
      ],
      [
        " man",
        "d"
      ],
      [
        " me",
        "di"
      ],
      [
        " Se",
        "ñor"
      ],
      [
        " n",
        "ombre"
      ],
      [
        "án",
        ","
      ],
      [
        "d",
        "os"
      ],
      [
        "ra",
        ","
      ],
      [
        " 2",
        "4"
      ],
      [
        " a",
        "quel"
      ],
      [
        " d",
        "ías"
      ],
      [
        " l",
        "lam"
      ],
      [
        " cam",
        "p"
      ],
      [
        " lle",
        "v"
      ],
      [
        "ta",
        ","
      ],
      [
        "í",
        "n"
      ],
      [
        " E",
        "gip"
      ],
      [
        " m",
        "uer"
      ],
      [
        "to",
        "."
      ],
      [
        " A",
        "l"
      ],
      [
        " al",
        "lí"
      ],
      [
        " en",
        "v"
      ],
      [
        " as",
        "í"
      ],
      [
        "t",
        "er"
      ],
      [
        "é",
        "r"
      ],
      [
        " L",
        "e"
      ],
      [
        "pu",
        "és"
      ],
      [
        "re",
        "ci"
      ],
      [
        " en",
        "tra"
      ],
      [
        "o",
        "lo"
      ],
      [
        " ",
        "F"
      ],
      [
        "t",
        "as"
      ],
      [
        " e",
        "j"
      ],
      [
        " Yahveh",
        "."
      ],
      [
        " pres",
        "en"
      ],
      [
        " c",
        "os"
      ],
      [
        "e",
        ","
      ],
      [
        "st",
        "ru"
      ],
      [
        " p",
        "la"
      ],
      [
        "ue",
        "s"
      ],
      [
        " Cu",
        "ando"
      ],
      [
        " 2",
        "5"
      ],
      [
        " ",
        "V"
      ],
      [
        " su",
        "b"
      ],
      [
        " En",
        "t"
      ],
      [
        " de",
        "j"
      ],
      [
        "ado",
        ","
      ],
      [
        " Israel",
        ","
      ],
      [
        "l",
        "or"
      ],
      [
        " con",
        "f"
      ],
      [
        " b",
        "aj"
      ],
      [
        " he",
        "cho"
      ],
      [
        "ra",
        "m"
      ],
      [
        " c",
        "ada"
      ],
      [
        "ist",
        "e"
      ],
      [
        "N",
        "o"
      ],
      [
        " j",
        "ef"
      ],
      [
        " L",
        "a"
      ],
      [
        "l",
        "o,"
      ],
      [
        " e",
        "ra"
      ],
      [
        " v",
        "osotros"
      ],
      [
        " est",
        "e"
      ],
      [
        "d",
        "u"
      ],
      [
        " qu",
        "ien"
      ],
      [
        " p",
        "ri"
      ],
      [
        " h",
        "an"
      ],
      [
        "e",
        "g"
      ],
      [
        " C",
        "asa"
      ],
      [
        " p",
        "on"
      ],
      [
        " n",
        "os"
      ],
      [
        " est",
        "a"
      ],
      [
        " lu",
        "gar"
      ],
      [
        " j",
        "un"
      ],
      [
        "pon",
        "dió"
      ],
      [
        " p",
        "os"
      ],
      [
        " y",
        "a"
      ],
      [
        " ju",
        "st"
      ],
      [
        " 2",
        "6"
      ],
      [
        "r",
        "ás"
      ],
      [
        " pues",
        ","
      ],
      [
        " re",
        "p"
      ],
      [
        "an",
        "z"
      ],
      [
        " re",
        "in"
      ],
      [
        " del",
        "ante"
      ],
      [
        "aú",
        "l"
      ],
      [
        " ",
        "-"
      ],
      [
        " sac",
        "rif"
      ],
      [
        " Jud",
        "á"
      ],
      [
        " E",
        "s"
      ],
      [
        " S",
        "aúl"
      ],
      [
        "a",
        "z"
      ],
      [
        "ici",
        "o"
      ],
      [
        "í",
        ","
      ],
      [
        " lle",
        "g"
      ],
      [
        " qu",
        "é"
      ],
      [
        "ren",
        "te"
      ],
      [
        "i",
        "ón"
      ],
      [
        "l",
        "os,"
      ],
      [
        "p",
        "e"
      ],
      [
        "do",
        ","
      ],
      [
        " 2",
        "7"
      ],
      [
        " ci",
        "el"
      ],
      [
        "n",
        "o"
      ],
      [
        "es",
        "."
      ],
      [
        " t",
        "rib"
      ],
      [
        " ha",
        "cer"
      ],
      [
        " oj",
        "os"
      ],
      [
        " gu",
        "ar"
      ],
      [
        "res",
        ","
      ],
      [
        " man",
        "os"
      ],
      [
        "h",
        "ora"
      ],
      [
        " se",
        "gún"
      ],
      [
        " es",
        "cu"
      ],
      [
        " ha",
        "cia"
      ],
      [
        " palab",
        "ras"
      ],
      [
        "en",
        "to"
      ],
      [
        " d",
        "ici"
      ],
      [
        " or",
        "den"
      ],
      [
        "o",
        "do"
      ],
      [
        " hab",
        "l"
      ],
      [
        " m",
        "ad"
      ],
      [
        "el",
        ","
      ],
      [
        "or",
        ","
      ],
      [
        "ar",
        "án"
      ],
      [
        " t",
        "or"
      ],
      [
        " te",
        "m"
      ],
      [
        " ",
        "ro"
      ],
      [
        " al",
        "tar"
      ],
      [
        " 2",
        "8"
      ],
      [
        "ch",
        "os"
      ],
      [
        "v",
        "en"
      ],
      [
        " en",
        "em"
      ],
      [
        " hab",
        "it"
      ],
      [
        "u",
        "ra"
      ],
      [
        " hab",
        "ían"
      ],
      [
        "us",
        "o"
      ],
      [
        "ri",
        "ó"
      ],
      [
        " b",
        "en"
      ],
      [
        "an",
        "za"
      ],
      [
        " lev",
        "an"
      ],
      [
        " enem",
        "ig"
      ],
      [
        " A",
        "ar"
      ],
      [
        " a",
        "d"
      ],
      [
        " Ent",
        "onces"
      ],
      [
        " car",
        "n"
      ],
      [
        "es",
        "ti"
      ],
      [
        " mis",
        "mo"
      ],
      [
        " sacerdo",
        "te"
      ],
      [
        " n",
        "osotros"
      ],
      [
        " des",
        "p"
      ],
      [
        " t",
        "er"
      ],
      [
        " di",
        "o"
      ],
      [
        "t",
        "al"
      ],
      [
        " b",
        "o"
      ],
      [
        " cab",
        "e"
      ],
      [
        " pro",
        "f"
      ],
      [
        " medi",
        "o"
      ],
      [
        " est",
        "aba"
      ],
      [
        "ra",
        "r"
      ],
      [
        " dici",
        "endo"
      ],
      [
        " f",
        "il"
      ],
      [
        "g",
        "re"
      ],
      [
        " t",
        "iemp"
      ],
      [
        "st",
        "e"
      ],
      [
        "f",
        "ic"
      ],
      [
        "ñ",
        "o"
      ],
      [
        " 2",
        "9"
      ],
      [
        " p",
        "o"
      ],
      [
        "or",
        "d"
      ],
      [
        " o",
        "í"
      ],
      [
        " com",
        "p"
      ],
      [
        "an",
        "a"
      ],
      [
        "ch",
        "e"
      ],
      [
        "ig",
        "u"
      ],
      [
        "l",
        "ic"
      ],
      [
        "t",
        "ad"
      ],
      [
        "a",
        "y"
      ],
      [
        "l",
        "en"
      ],
      [
        "in",
        "a"
      ],
      [
        " im",
        "p"
      ],
      [
        "r",
        "o,"
      ],
      [
        "ac",
        "ob"
      ],
      [
        "iemp",
        "re"
      ],
      [
        "t",
        "or"
      ],
      [
        "t",
        "aron"
      ],
      [
        " «",
        "E"
      ],
      [
        " S",
        "am"
      ],
      [
        "ñ",
        "a"
      ],
      [
        " g",
        "en"
      ],
      [
        " pue",
        "r"
      ],
      [
        " cu",
        "al"
      ],
      [
        " pec",
        "ado"
      ],
      [
        " v",
        "al"
      ],
      [
        " s",
        "iempre"
      ],
      [
        " J",
        "acob"
      ],
      [
        " A",
        "m"
      ],
      [
        " des",
        "c"
      ],
      [
        " 3",
        "0"
      ],
      [
        " de",
        "r"
      ],
      [
        " com",
        "er"
      ],
      [
        "ér",
        "ci"
      ],
      [
        " ej",
        "érci"
      ],
      [
        " diciendo",
        ":"
      ],
      [
        "á",
        "is"
      ],
      [
        " c",
        "an"
      ],
      [
        "ien",
        "do"
      ],
      [
        " nuest",
        "ro"
      ],
      [
        " se",
        "a"
      ],
      [
        " o",
        "tro"
      ],
      [
        " ",
        "Z"
      ],
      [
        "í",
        "o"
      ],
      [
        " ",
        "ra"
      ],
      [
        " g",
        "uer"
      ],
      [
        " cu",
        "anto"
      ],
      [
        " vi",
        "v"
      ],
      [
        "d",
        "as"
      ],
      [
        "d",
        "on"
      ],
      [
        " D",
        "ijo"
      ],
      [
        " Israel",
        "."
      ],
      [
        " cam",
        "ino"
      ],
      [
        "am",
        "os"
      ],
      [
        "ra",
        "do"
      ],
      [
        "ci",
        "r"
      ],
      [
        " añ",
        "os"
      ],
      [
        "id",
        "os"
      ],
      [
        " s",
        "ie"
      ],
      [
        " ciudad",
        "es"
      ],
      [
        " sier",
        "v"
      ],
      [
        " jun",
        "to"
      ],
      [
        " se",
        "ñor"
      ],
      [
        " J",
        "o"
      ],
      [
        " vuest",
        "ro"
      ],
      [
        " A",
        "j"
      ],
      [
        " g",
        "ra"
      ],
      [
        " s",
        "en"
      ],
      [
        "ar",
        ","
      ],
      [
        "l",
        "a,"
      ],
      [
        " p",
        "u"
      ],
      [
        "it",
        "as,"
      ],
      [
        " Sal",
        "om"
      ],
      [
        "b",
        "aj"
      ],
      [
        "n",
        "a"
      ],
      [
        " palab",
        "ra"
      ],
      [
        " cam",
        "in"
      ],
      [
        "e",
        "ci"
      ],
      [
        " h",
        "oy"
      ],
      [
        "r",
        "os,"
      ],
      [
        " g",
        "lor"
      ],
      [
        "am",
        "ente"
      ],
      [
        " ",
        "U"
      ],
      [
        " m",
        "at"
      ],
      [
        "es",
        "t"
      ],
      [
        "ía",
        ","
      ],
      [
        "ien",
        "te"
      ],
      [
        " «",
        "¡"
      ],
      [
        " pro",
        "p"
      ],
      [
        " ex",
        "t"
      ],
      [
        " san",
        "gre"
      ],
      [
        " ",
        "ir"
      ],
      [
        "e",
        "d"
      ],
      [
        " d",
        "is"
      ],
      [
        "re",
        "cer"
      ],
      [
        "an",
        "tes"
      ],
      [
        " trib",
        "u"
      ],
      [
        " f",
        "or"
      ],
      [
        " As",
        "í"
      ],
      [
        "i",
        "ta"
      ],
      [
        "ab",
        "le"
      ],
      [
        " v",
        "ida"
      ],
      [
        " 3",
        "1"
      ],
      [
        "00",
        "0"
      ],
      [
        "olo",
        "ca"
      ],
      [
        " S",
        "u"
      ],
      [
        "di",
        "do"
      ],
      [
        "tra",
        "s"
      ],
      [
        " fuer",
        "on"
      ],
      [
        " h",
        "oloca"
      ],
      [
        " holoca",
        "u"
      ],
      [
        "al",
        "a"
      ],
      [
        " or",
        "o"
      ],
      [
        " fil",
        "iste"
      ],
      [
        " tierra",
        ","
      ],
      [
        " Q",
        "ue"
      ],
      [
        ".",
        "000"
      ],
      [
        "ción",
        ","
      ],
      [
        " ent",
        "onces"
      ],
      [
        " c",
        "al"
      ],
      [
        " vuest",
        "ros"
      ],
      [
        " ",
        "“"
      ],
      [
        " d",
        "ij"
      ],
      [
        " l",
        "i"
      ],
      [
        " a",
        "qu"
      ],
      [
        " Y",
        "o"
      ],
      [
        " D",
        "es"
      ],
      [
        " C",
        "on"
      ],
      [
        "c",
        "ó"
      ],
      [
        "!",
        "»"
      ],
      [
        " de",
        "c"
      ],
      [
        "i",
        "ra"
      ],
      [
        "y",
        "ó"
      ],
      [
        " n",
        "aci"
      ],
      [
        " v",
        "ien"
      ],
      [
        " Por",
        "que"
      ],
      [
        " b",
        "us"
      ],
      [
        " des",
        "pués"
      ],
      [
        " R",
        "e"
      ],
      [
        "m",
        "b"
      ],
      [
        " m",
        "or"
      ],
      [
        " P",
        "ues"
      ],
      [
        " b",
        "uen"
      ],
      [
        " ",
        "r"
      ],
      [
        "j",
        "o"
      ],
      [
        "ue",
        "go"
      ],
      [
        " c",
        "in"
      ],
      [
        " vol",
        "v"
      ],
      [
        " Aar",
        "ón"
      ],
      [
        " p",
        "i"
      ],
      [
        " p",
        "an"
      ],
      [
        " c",
        "er"
      ],
      [
        " «",
        "A"
      ],
      [
        " a",
        "ce"
      ],
      [
        " d",
        "ie"
      ],
      [
        "re",
        "mos"
      ],
      [
        " com",
        "un"
      ],
      [
        " t",
        "res"
      ],
      [
        "ci",
        "ones"
      ],
      [
        " f",
        "rente"
      ],
      [
        " 3",
        "2"
      ],
      [
        " él",
        ","
      ],
      [
        " p",
        "uso"
      ],
      [
        " sacerdo",
        "tes"
      ],
      [
        " Jos",
        "ué"
      ],
      [
        " am",
        "or"
      ],
      [
        "er",
        ","
      ],
      [
        " sie",
        "te"
      ],
      [
        " en",
        "g"
      ],
      [
        " m",
        "en"
      ],
      [
        " jef",
        "es"
      ],
      [
        "a",
        "f"
      ],
      [
        "t",
        "os,"
      ],
      [
        " ha",
        "ce"
      ],
      [
        " F",
        "ara"
      ],
      [
        "ir",
        "á"
      ],
      [
        " Dios",
        "."
      ],
      [
        "P",
        "or"
      ],
      [
        "i",
        "o,"
      ],
      [
        " m",
        "es"
      ],
      [
        " al",
        "i"
      ],
      [
        " es",
        "o"
      ],
      [
        " nuest",
        "ros"
      ],
      [
        " tiemp",
        "o"
      ],
      [
        " h",
        "ici"
      ],
      [
        " des",
        "ier"
      ],
      [
        " c",
        "uer"
      ],
      [
        "al",
        "es"
      ],
      [
        " just",
        "ici"
      ],
      [
        "ar",
        "éis"
      ],
      [
        " g",
        "an"
      ],
      [
        " sier",
        "vo"
      ],
      [
        "d",
        "er"
      ],
      [
        "g",
        "o,"
      ],
      [
        "o",
        ";"
      ],
      [
        " h",
        "u"
      ],
      [
        "Q",
        "ué"
      ],
      [
        " l",
        "len"
      ],
      [
        " B",
        "en"
      ],
      [
        "pu",
        "l"
      ],
      [
        " Salom",
        "ón"
      ],
      [
        "r",
        "án"
      ],
      [
        " ",
        "ri"
      ],
      [
        " a",
        "hora"
      ],
      [
        "al",
        "l"
      ],
      [
        "g",
        "ó"
      ],
      [
        "id",
        "ur"
      ],
      [
        "m",
        "ás"
      ],
      [
        " s",
        "ido"
      ],
      [
        " c",
        "ol"
      ],
      [
        " n",
        "ada"
      ],
      [
        " v",
        "id"
      ],
      [
        " res",
        "pondió"
      ],
      [
        "m",
        "as"
      ],
      [
        " con",
        "o"
      ],
      [
        " A",
        "bra"
      ],
      [
        " est",
        "aban"
      ],
      [
        " ap",
        "ar"
      ],
      [
        " herman",
        "os"
      ],
      [
        "c",
        "uen"
      ],
      [
        "m",
        "on"
      ],
      [
        " d",
        "ios"
      ],
      [
        "ien",
        "tes"
      ],
      [
        " pie",
        "d"
      ],
      [
        "d",
        "es"
      ],
      [
        "t",
        "an"
      ],
      [
        " «",
        "S"
      ],
      [
        " «",
        "H"
      ],
      [
        " pad",
        "res"
      ],
      [
        "c",
        "ar"
      ],
      [
        " s",
        "ue"
      ],
      [
        " est",
        "o"
      ],
      [
        " v",
        "oz"
      ],
      [
        " 3",
        "3"
      ],
      [
        " añ",
        "o"
      ],
      [
        "c",
        "en"
      ],
      [
        "i",
        "a,"
      ],
      [
        " R",
        "es"
      ],
      [
        "od",
        "os"
      ],
      [
        " l",
        "ib"
      ],
      [
        "ado",
        "."
      ],
      [
        " M",
        "an"
      ],
      [
        " herman",
        "o"
      ],
      [
        " par",
        "te"
      ],
      [
        " pla",
        "ta"
      ],
      [
        " pri",
        "m"
      ]
    ]
  }
}